0
0
0
0
0
0
0
1
3
0
0
0
3
0
0
1
0
1
0
3
3
0
1
1
3
3
3
3
0
0
3
1
1
3
0
0
0
0
3
1
0
1
0
3
1
1
1
1
0
1
1
0
0
1
1
1
3
0
3
0
3
3
3
0
0
0
1
1
1
1
1
0
0
0
0
0
3
0
1
3
0
3
0
0
0
3
3
0
0
1
0
0
1
3
0
0
3
3
3
0
1
3
0
0
0
3
0
1
0
3
0
3
0
0
1
0
0
0
0
1
3
3
0
0
0
3
1
0
0
0
1
1
1
0
1
0
0
0
0
0
0
0
3
3
1
1
0
1
1
0
0
3
1
1
0
3
3
1
1
3
3
0
0
3
0
0
0
0
0
3
1
1
0
0
0
0
0
0
0
0
3
3
3
1
0
0
1
1
1
1
1
0
0
0
0
3
0
1
0
3
0
0
0
3
3
0
1
1
3
3
3
1
3
3
3
1
3
3
1
0
3
0
3
3
0
0
1
1
1
1
3
3
3
3
3
3
1
1
0
0
3
3
3
3
3
1
1
1
0
0
0
3
3
1
1
0
1
3
3
0
3
0
0
0
3
3
3
3
0
3
0
0
0
1
0
1
1
1
3
3
1
1
1
3
0
1
1
0
3
0
3
3
3
3
3
0
0
3
3
1
0
3
3
1
0
3
0
3
0
3
3
0
3
0
1
0
1
1
1
3
1
0
3
3
3
3
0
1
0
3
1
0
0
0
1
0
0
0
1
0
3
0
0
3
0
3
3
3
3
0
3
3
0
3
1
0
1
0
3
1
0
1
0
1
1
0
1
1
0
0
0
3
3
1
1
1
0
3
3
3
3
3
0
3
0
1
0
1
1
1
0
3
0
0
3
3
3
1
1
0
0
0
1
3
3
3
3
1
0
1
1
1
0
3
1
0
0
0
0
1
3
3
1
3
3
3
0
1
0
1
0
3
0
0
0
1
1
0
3
0
0
0
0
3
0
3
3
0
0
0
0
3
0
3
0
0
0
0
3
0
0
0
0
1
0
0
0
0
0
1
1
1
0
1
1
1
0
3
3
1
0
0
0
1
0
0
0
0
0
0
0
3
0
0
0
0
0
0
0
0
0
0
3
0
0
0
0
0
0
3
0
0
0
0
3
3
3
3
0
0
0
0
3
3
1
0
1
0
3
3
1
0
3
0
1
1
0
1
1
1
1
1
3
0
0
3
3
1
1
0
3
3
0
3
3
3
3
3
3
3
0
0
0
0
0
1
1
0
1
0
1
1
1
1
1
0
0
0
0
0
3
3
0
0
0
0
3
3
3
3
3
3
1
1
0
1
1
1
3
3
1
1
1
3
1
1
1
3
0
1
3
3
1
1
3
3
0
3
0
3
0
3
3
3
0
3
3
0
0
3
3
0
0
1
1
1
1
1
1
1
3
3
0
3
3
0
3
0
0
1
0
0
3
0
1
0
0
0
0
3
3
1
1
1
0
3
3
1
1
3
3
0
0
1
1
1
0
1
0
0
0
1
3
3
0
0
0
0
0
0
0
3
0
1
1
0
0
0
0
3
3
3
0
0
3
1
3
3
3
0
0
0
0
0
3
3
3
0
1
1
3
3
1
0
3
0
1
1
0
3
0
1
3
3
3
0
0
1
0
3
0
1
0
0
0
0
3
3
1
3
3
0
3
3
0
0
0
1
1
0
0
0
3
3
3
3
0
0
3
0
0
0
0
0
3
0
0
1
0
1
0
0
1
1
0
3
3
3
1
3
3
1
3
3
3
3
1
3
3
0
3
3
3
1
1
0
3
3
0
1
3
3
1
1
1
0
0
1
1
3
0
1
1
0
0
0
0
3
3
3
0
0
0
0
0
3
1
0
3
0
3
0
0
3
3
0
0
0
0
1
0
3
3
0
1
3
1
0
3
0
1
1
1
0
0
1
0
3
0
1
1
1
0
3
0
1
0
0
3
0
0
0
3
0
1
1
3
1
3
1
3
3
0
3
3
0
0
0
0
0
1
1
0
0
0
1
1
0
0
1
1
1
0
1
3
3
0
3
3
0
0
1
0
1
1
1
3
3
0
0
0
0
1
1
1
3
0
3
3
3
3
0
3
3
0
0
0
3
1
0
3
0
0
1
1
1
3
0
0
3
1
0
0
0
0
1
0
0
0
0
1
3
3
3
3
0
1
1
1
1
3
3
3
3
1
1
1
3
3
1
3
3
0
1
1
3
1
1
1
3
0
3
0
1
1
3
3
0
3
3
3
3
3
3
1
0
0
1
1
3
0
3
0
0
1
0
1
3
3
3
3
0
3
0
0
3
0
0
1
1
3
3
0
0
0
1
1
1
3
0
1
1
3
3
3
1
1
1
1
0
3
0
0
0
1
1
0
3
0
3
0
0
3
0
1
0
3
1
1
0
1
0
3
3
3
3
3
0
0
0
0
3
3
3
3
0
0
1
0
1
3
0
3
0
0
1
3
0
1
0
0
1
1
1
3
3
1
3
3
1
1
3
3
3
3
0
0
0
0
1
3
3
0
1
1
1
0
1
1
0
0
1
3
0
0
0
1
1
0
0
0
0
0
0
0
0
0
0
0
0
0
0
0
1
1
0
3
0
3
3
1
1
1
3
0
0
0
0
0
3
3
1
1
1
3
3
3
1
1
3
3
0
0
1
1
1
0
3
1
1
3
3
0
3
0
0
1
1
0
3
3
1
1
1
1
0
1
0
3
3
3
3
0
3
0
0
0
1
0
0
0
0
0
0
3
1
1
1
0
1
0
0
0
3
1
3
3
3
0
0
0
3
3
1
3
0
0
1
3
3
0
3
1
1
0
0
1
3
0
0
1
0
1
0
1
0
3
0
0
3
0
0
1
1
1
1
0
3
0
3
3
0
1
1
1
0
3
3
3
3
3
3
3
3
3
3
0
3
3
3
3
3
0
1
1
1
1
3
0
1
3
3
1
1
1
1
1
1
1
3
1
3
0
1
1
0
1
3
3
3
3
3
0
1
0
1
1
3
0
0
0
0
0
0
3
0
0
3
0
3
0
0
0
0
1
1
3
3
0
3
3
3
3
3
1
0
0
1
1
3
3
3
0
1
0
1
0
1
1
3
1
1
0
0
1
0
0
1
1
1
0
3
3
3
3
0
3
0
0
0
0
0
3
0
0
0
1
1
0
0
0
0
3
0
0
0
0
3
0
0
3
3
0
0
0
1
1
0
1
0
0
1
1
1
3
0
1
3
0
0
3
3
0
0
3
3
1
0
0
1
1
0
3
0
0
0
0
3
3
3
3
0
0
0
0
1
1
1
0
1
0
3
3
0
1
0
0
0
0
3
0
1
0
3
0
1
0
1
1
1
3
3
1
1
3
3
0
1
3
3
3
1
0
0
1
1
0
0
0
1
1
3
0
1
0
0
1
1
0
3
3
0
1
1
0
0
1
1
3
3
3
3
0
0
0
1
1
1
1
1
3
1
0
1
1
1
1
1
1
1
1
0
3
3
3
0
0
1
0
3
3
3
3
3
3
1
0
1
1
3
3
1
1
1
3
1
1
1
1
1
1
1
0
3
1
1
1
0
3
0
0
0
0
1
1
1
3
0
0
3
0
0
1
0
3
3
0
0
0
0
1
3
3
3
3
1
1
1
3
3
1
0
0
3
0
0
3
0
0
0
0
3
0
1
0
0
0
3
0
0
0
0
0
3
3
0
0
1
0
1
0
1
0
1
0
0
0
0
1
0
0
0
0
3
3
3
0
1
1
1
0
3
3
1
3
3
1
1
3
0
1
1
1
3
3
1
0
3
3
1
1
3
3
3
0
3
1
1
3
3
0
3
3
3
3
3
1
1
1
3
3
3
3
3
3
0
0
0
0
0
0
0
0
1
1
3
0
0
3
3
3
0
1
1
0
0
0
3
3
3
0
1
0
1
1
1
0
3
3
0
0
0
3
0
1
0
0
3
0
3
0
1
0
0
0
3
0
0
1
0
1
0
3
3
0
3
0
0
3
3
0
3
0
0
0
1
0
0
0
0
0
0
0
0
3
3
0
0
3
0
0
1
1
0
0
1
0
3
3
3
3
3
3
0
0
0
0
3
0
0
3
1
0
1
3
1
0
0
0
1
0
0
0
0
3
0
1
1
0
0
3
0
1
0
3
0
1
1
0
0
0
0
0
0
0
0
1
0
0
0
0
1
0
1
1
3
3
0
0
3
0
3
3
3
3
1
3
3
0
0
1
1
1
1
0
1
1
1
1
1
1
1
1
1
0
0
3
3
3
1
1
1
0
3
0
3
3
3
3
0
3
0
0
3
1
0
0
1
1
1
1
0
0
1
3
0
0
0
3
0
1
0
0
3
0
3
0
3
1
1
0
3
1
1
1
0
0
0
1
3
0
3
0
3
0
1
3
3
1
1
3
3
0
0
3
3
0
1
1
3
3
3
1
0
0
0
0
3
0
3
0
0
0
0
0
3
3
0
0
0
1
1
0
0
3
0
1
1
0
1
0
1
1
3
3
0
0
0
0
0
0
1
0
0
0
0
0
3
0
0
0
3
1
0
0
0
0
0
3
0
0
1
1
0
0
3
0
0
0
0
0
3
0
0
0
0
0
0
0
0
0
0
0
3
0
1
1
0
3
1
1
3
1
3
3
3
0
1
1
0
3
3
3
1
1
3
3
1
0
0
1
1
0
3
0
1
1
1
0
3
1
1
1
1
3
3
3
3
0
3
3
1
3
0
3
0
0
0
3
0
0
0
0
0
0
0
0
3
0
1
0
3
0
0
3
3
3
0
3
3
0
1
1
3
0
1
0
0
0
0
1
0
0
3
1
1
0
3
3
0
0
0
3
1
1
0
0
0
0
0
3
3
3
0
3
0
1
0
0
1
1
1
1
3
1
3
1
3
3
0
1
1
0
1
1
3
3
3
1
1
1
0
1
1
3
3
3
1
0
3
3
3
3
1
1
1
0
1
1
1
0
1
1
0
0
3
0
1
0
3
3
0
3
0
3
1
0
3
3
0
0
0
3
3
3
3
3
0
0
0
3
3
3
3
1
0
0
3
0
1
0
1
1
3
1
1
1
3
3
1
3
3
0
1
1
3
1
1
3
3
3
3
3
3
1
3
3
1
3
3
3
3
3
1
1
1
1
1
1
1
1
1
1
0
0
0
0
0
0
0
0
3
0
0
0
3
3
3
1
1
0
1
1
0
3
0
1
1
1
1
1
1
1
1
3
3
0
3
3
3
1
1
1
3
0
0
3
3
0
3
3
3
0
0
0
1
0
3
3
0
3
1
1
1
1
0
3
0
0
0
0
0
0
0
0
1
0
1
1
0
1
0
3
0
0
1
0
1
1
1
0
0
0
3
3
3
0
1
0
0
3
1
0
3
0
3
0
0
0
1
0
3
0
0
0
0
0
0
3
3
3
3
0
0
0
0
1
1
0
0
0
0
0
1
1
1
1
1
0
3
0
0
0
3
3
0
1
1
0
0
1
3
3
3
0
1
0
0
0
1
1
3
3
0
0
3
0
3
1
1
1
0
0
3
3
0
0
1
0
3
0
3
0
1
0
0
3
3
1
0
1
0
0
3
0
0
3
0
1
3
0
3
0
0
0
0
0
1
0
0
0
1
1
1
0
1
0
1
1
1
1
0
0
3
1
0
3
1
3
3
3
3
1
0
3
0
0
1
0
3
0
3
0
1
0
0
1
3
0
1
1
0
0
3
3
1
0
1
0
0
0
0
0
3
0
0
3
1
3
3
0
3
3
0
1
1
0
0
1
0
3
0
1
1
0
1
1
1
3
3
0
0
0
0
3
0
0
0
1
3
0
3
0
1
0
0
0
0
3
3
0
1
1
3
0
0
0
3
3
0
0
0
0
0
0
0
0
0
1
1
0
0
0
3
3
3
3
3
1
1
0
0
1
0
0
0
0
1
1
1
1
1
1
3
3
1
0
3
3
3
0
0
1
0
3
0
3
0
0
3
0
3
0
0
1
0
0
3
0
0
0
1
0
0
0
0
3
0
1
0
0
1
1
1
1
0
0
1
3
3
3
3
3
3
1
1
3
3
1
0
3
3
1
1
1
3
3
1
1
3
0
1
1
3
3
1
1
1
3
3
3
1
1
3
3
1
0
3
3
3
3
3
3
0
3
0
0
3
3
3
0
0
0
1
1
1
1
1
1
0
0
1
1
1
1
0
3
0
0
1
1
3
3
3
3
3
0
3
3
3
1
3
3
0
0
3
3
0
1
0
1
1
0
1
3
1
1
1
1
1
0
1
0
3
0
0
3
0
0
0
0
3
3
3
3
0
0
1
0
0
1
1
0
0
1
3
3
3
3
1
1
1
0
3
3
1
1
3
0
1
0
1
1
1
3
3
1
1
0
1
1
3
3
3
1
0
0
3
0
0
3
3
3
3
0
3
3
1
0
3
3
1
0
0
0
3
0
1
0
0
0
3
0
0
1
0
1
3
1
1
1
1
0
3
3
3
0
1
1
3
1
1
3
3
1
0
3
3
1
1
3
0
0
3
3
3
0
1
1
0
0
1
3
3
3
1
3
3
0
1
0
3
0
3
3
3
3
1
1
1
1
1
0
0
0
0
0
0
0
0
0
0
1
3
3
0
0
0
0
1
1
3
3
0
1
0
3
1
3
1
1
1
3
3
3
0
0
3
0
0
0
3
3
0
0
1
0
3
0
0
0
3
0
0
0
3
3
3
1
0
0
0
0
0
3
1
1
0
1
0
1
1
1
1
0
0
0
3
0
0
1
1
0
0
0
3
3
3
3
3
3
3
3
3
3
3
3
3
1
1
0
1
1
1
3
3
1
1
3
1
1
1
1
1
1
1
0
0
0
1
1
1
0
0
0
3
3
3
3
3
3
0
2
0
F
3
4
3
1
0
C
F
0
3
3
0
0
2
1
4
B
5
2
4
D
0
E
F
F
0
2
0
F
1
0
F
1
5
3
1
1
2
1
3
7
2
3
0
3
1
0
3
0
3
0
3
0
0
3
0
0
0
3
0
3
3
1
0
3
0
0
0
0
0
1
0
3
3
0
0
0
0
0
0
1
0
0
0
0
0
0
0
0
3
1
0
0
1
0
1
0
3
1
0
0
3
0
0
0
0
1
0
0
3
0
0
0
0
1
1
3
3
3
0
1
1
0
0
0
0
0
0
3
0
0
0
0
0
0
1
0
1
0
0
0
0
1
0
0
0
0
1
0
3
0
3
0
0
1
0
3
0
0
0
1
0
1
1
0
0
1
0
0
3
0
1
0
0
0
0
0
3
0
0
0
0
0
0
0
1
3
1
0
0
1
0
0
3
0
0
0
0
0
0
1
0
1
0
0
3
0
1
0
0
0
0
0
3
1
0
3
0
0
0
0
0
0
0
0
3
0
1
0
0
0
0
3
1
3
1
0
3
0
0
0
1
0
1
0
0
1
0
0
1
0
0
0
1
1
3
3
0
1
3
0
3
3
3
1
0
0
1
0
1
0
0
0
1
3
0
0
0
0
0
1
0
0
0
0
0
0
0
0
0
0
0
0
0
1
0
1
1
0
0
3
3
1
0
0
0
0
0
0
0
1
0
1
0
0
0
0
0
0
0
1
0
0
3
1
0
0
1
0
0
0
0
0
3
0
0
0
1
3
0
0
3
3
0
3
0
0
0
0
0
0
3
0
3
1
3
0
0
3
1
1
0
0
1
0
0
0
0
1
3
0
3
1
3
0
0
1
1
0
3
0
1
0
0
0
0
1
0
0
0
0
1
0
1
3
0
0
1
3
0
0
0
3
0
0
3
0
0
3
0
0
0
0
0
0
3
0
1
1
0
0
0
0
1
1
0
0
1
0
3
1
1
0
0
0
0
0
0
1
1
0
0
3
0
3
3
0
3
1
3
0
3
0
1
1
0
1
0
0
0
0
0
1
0
0
0
1
0
0
0
0
0
3
0
3
0
0
3
0
0
0
1
1
0
3
0
1
1
0
0
0
0
0
0
0
0
0
0
3
0
0
3
3
0
0
0
0
0
0
0
0
0
3
1
0
0
0
0
0
0
1
3
0
0
0
3
E
F
0
1
F
3
E
F
2
0
